1001000000010010110110110110000111000010000000111101001001001000101101010111100110001010011001101001110001001111001000110110101011001111100001001010110000000000000111100011111011001001101100011110010101100011101001000001100000100010001101010011110011110011
1001001101110110101000100111101110110101100111000001010010101011110010110011111001110010011000110111100001001111111000001100110100101001100010100100010011101101010000001011101010000100100000001100110011110100111010111110110010001001100101111111100110010100
0001011000111111111100100111010110010110001100011100010101111100101110110101101100100011111111111010110000100000000000001111000111101011010110011010101010000100111010000000100011100010100001011011111101101100100000100011001010100111110000100111001001101010
1100011100100100010111100000111111011111110110100000011111011010000010111000101001111010101010111001001100110111011101011011110000100010101110111111110100101110110000000100000000000011100000111001111001000000001101001001010010010101000101011001010110000010
1110100111001010111011001000110001100001101110101111110000101101011001000000000001111100000000000110101101011010000010001000110011010001011001000100010011010011001110011111011110110101010110100001101000011011001010111010001100110000011111110100111001111110
0110111000010001000111001000011011011110001100100100011100000101001100011000010010001101100111000100011101011111111010111110001101111110111100001011111110011100011100000101001011101111001101010111000100100000101001000101001011011111111011000100000011010010
1011101010011010101010110010000101011010001111111100010100000011111101110100010101011100111110001101110011001010101001111111111111111001100000100110010011010000001111111111111100001100111010000111010010101001100111111010000110011000111000100111001000111101
0011000111101001110100110011101000100100010100100111100011011110000110101010010111101010000100010010000111100110010111100010011000000001110011010111000101111011110000100110110100110100101111101000101011010000000010011101101001111110001100101001111111000111
0110010000000001001101001100111101011011001011110001110110100010000100011101011111000101000111100101111010111101010101110100011101001110011000001000011110100011010001111000001110011010010011100010000001111111010111100110010010100100100000000110100100101001
1111101011001110010101111001001001100011111011001011100000010100111111100111001010111110000100010000000111110001000011100001110100000001010111000001001101110100100010111010100101011101011111100000001000011101011010010001111101011000001110111110110110110101
