0000
0003
0002
FFFF
FFFB
0002
0004
0001
FFFF
0000
FFFE
0000
FFFE
0004
0004
FFFF
FFFF
0007
0001
0000
FFFF
0001
FFFF
FFFD
FFFE
FFFF
FFFF
FFFD
FFFD
FFFF
FFFD
0002
FFFF
0000
0001
FFFC
0004
FFFF
FFFF
0004
FFFD
FFFD
FFFE
0003
0002
FFFD
0000
0004
0000
0001
0002
FFFF
FFFF
FFFD
FFFC
FFFF
FFFE
FFFF
0004
0001
0002
FFFF
FFFC
FFFF
FFFF
FFFF
FFFF
FFFF
FFFD
0001
FFFE
FFFB
FFFE
FFFD
0000
0001
FFFE
FFFE
0001
0000
0000
0003
0005
FFFF
0000
FFFF
FFFF
0000
0000
FFFE
FFFD
FFFD
0000
FFFD
0002
FFFF
0001
FFFE
0001
FFFF
0001
0001
0000
0004
FFFF
0001
FFFF
0000
0002
0002
0000
FFFF
0001
FFFD
0000
FFFE
0001
FFFF
0000
0001
0002
FFFE
0001
0001
FFFE
FFFD
FFFF
FFFF
0002
0001
0003
0000
0000
0001
0002
0000
FFFF
0001
0003
0002
0002
0001
0001
FFFF
FFFF
FFFE
0001
0001
FFFC
0001
0002
FFFD
FFFC
0003
0003
0000
0001
0005
0000
0003
0003
FFFF
FFFC
FFFB
FFFF
FFFD
FFFF
FFFE
0003
FFFF
0000
0001
0006
0001
0000
0000
FFFE
0000
0000
0000
FFFF
0003
0004
FFFD
FFFC
0000
FFFE
0002
FFFF
0000
0002
FFFD
FFFB
0003
0000
0004
0001
FFFD
FFFE
0001
0002
0002
FFFE
0003
FFFD
FFFD
0002
0001
FFFB
FFFD
FFFF
0001
FFFD
0000
0000
0000
0003
0003
0002
0000
FFFE
0001
FFFE
0000
FFFE
FFFF
FFFF
FFFF
0000
FFFF
FFFE
FFFE
FFFE
FFFE
0001
0002
0003
FFFF
FFFF
FFFB
FFFF
FFFE
0001
FFFF
0001
FFFF
0001
0000
0001
0000
0001
FFFF
0000
FFFE
0000
0000
0002
0002
0001
FFFC
0000
FFFE
0006
0004
0002
FFFB
0005
FFFF
0001
0003
FFFE
0000
FFFB
FFFF
FFFE
0002
0003
0002
0004
0003
0003
FFFE
0000
FFFF
0001
0000
FFFF
0002
FFFD
0001
FFFF
FFFE
FFFE
0001
0002
FFFE
FFFD
FFFF
FFFE
0000
0001
FFFE
0001
0005
FFFF
0005
0004
FFFE
FFFC
FFFD
0000
FFFB
0000
0004
FFFE
FFFE
0001
0004
0006
0004
FFFE
0003
FFFD
FFFE
0004
0003
0002
FFFF
0000
0000
FFFF
0001
FFFF
FFFF
0000
FFFB
FFFD
FFFF
FFFF
0002
0002
0003
0002
0001
0000
FFFE
FFFF
0001
0000
0001
FFFF
0000
FFFE
FFFE
0000
0000
0002
0006
FFFF
FFFF
0002
FFFF
0000
0004
FFFE
FFFE
0000
FFFF
FFFF
FFFE
0000
0000
0000
0000
0002
FFFF
0000
0002
0000
FFFE
0002
FFFF
0004
FFFC
0002
FFFD
0000
0002
0004
0000
FFFD
FFFD
0006
FFFD
0001
0000
0001
FFFF
FFFD
0000
0001
0001
0001
0001
FFFD
0000
FFFF
0000
0000
FFFD
0001
0000
0002
0004
0003
FFFD
FFFD
FFFC
0000
0000
0004
FFFC
0004
0003
0002
FFFE
0002
0000
0004
FFFF
FFFE
0002
FFFF
0002
0001
FFFF
0000
0001
FFFD
0000
FFFF
0001
FFFE
FFFE
0001
0001
0000
FFFD
FFFB
0001
0002
FFFD
0002
FFFF
FFFE
FFFF
0001
FFFE
0003
0000
FFFD
FFFF
FFFD
0006
0001
0001
FFFE
FFFF
FFFC
0003
FFFF
FFFE
FFFC
0001
0001
0000
FFFC
FFFE
0001
0000
0003
FFFE
FFFE
0002
0000
0000
0001
0004
FFFE
0002
0003
0005
0001
0000
FFFF
0002
FFFE
FFFC
FFFD
FFFE
FFFB
0001
0000
0001
FFFF
0000
0002
0003
0002
FFFE
0000
0000