0101000011011011001000101111011011000100010110100111110100010100110101010100011101100111001010000111100101010100111110011001101111001011010001111000110010010111100110110100110100111100100010010101001001001000000001100111111011011110110110101101001000000101
0010011111011010101111110000111011111110101011101010001010110110000001000111011001011001110101101101110100101001000011000111111010111100001010011101010011000100101011101011000010100110110101010001000100101110010000011000011010110011011001000110101100110000
1001110010001111110010011100100001000011110000100000001101110000100100111000011111010010000011111111010001100101110110011011111111101001011000010001110011001011001110010011101001001110010100010100011001101100100010101110000101100011011001000001101111000001
1100110110100101011101110110000111101100101011110010110011011000110010100111100101001110001011010000100000000111011101010101111010111111011111010111110011000001101110110010111100001101101111011110111010101111010010010100111000101101010000001000100010000101
1010001011010100001000000001101110111001000111111100111000100011011010000110110000110010011100100001001011011101100101101010000100010101110111101110010100101100110011001000111111010011001100101010100111010101111111010011000011011101101101111101011111101110
0101011111100101011000111111011011010100111000001010010100001100010101000100001011001101011011001011011001000011011100000111010010100001010001100100011011011111101000110100001110111001010010001111100110010000110100110011011101011010010110110110100010011100
1111010011000110000000001001110000011010110111100100110100000011001100001111011101110000010000010011101001100100100000101010010011000000110000011001110101011101110011000001111011111011000000110001100001000101101001100111010011111111010011100111010101010000
1010101000010000001011010100000110101101010100011101001011001100100011111011100000110011011110000100011011010010101111101101001000111110001110010011001010100000000100111110010111000111001111001011100110010010111010001100100100000000101001001110100010100111
0111111101111010010111100011101101110101111001101001000000111101100010011100000111000100000011111101111010111111001000010100011110001010110111101100111100010011111100110011001001110001011001010010001010010110001000111011011111100000011101110010010101111010
1110001100010000101010000000100100001101010011010101011000111011101011100011100110111110110100111000100111011010001110101100000000111100101101100111001100100000010101001100010011100011101110110010001110110111100111110000100000011000101111101001010100101111
