0111100000101110110111111000101111011001110100110100011110100110011101101101010001010111100111100001111001111010111110000001010000011111010000110110111111110001100101010110001111011111011010010110000110100101010001011000011000101000110001010001111111011010
0100011010000111001100000010000101000101001001011010110110000001101000011111101000100011011110111010111001000101001101111000001111101000101101101000100000010000101001111011111011010100110101011001001111111110111111001001101000111110011010101110001000011100
0011111100010111010010011010001001101100011110001111101010000010110000010110101101110011110100111001111111001011011111110101100010001011000000001110011101010000010001100000010101000010001101000100011001100110100010010110100011000101001110100010011111110010
1111111111110001001001011111010011010000111010100101001101000111111110011110001110111011000000111101110101110011010000000111100110101010101111101100111101001001110001110111111011110101011101100000110011111111100010000010010100001110111011101101010100010010
1100010000011001110110001110010100110110001111110001010011101000000001001000111000111100100111000111001010101101001000101010100101101101010001001001000000001110101111101101000100110101100010111111101010100000111111011111110100100011110000111000100011001101
0101100011101000110000100000100010000010100001111110001011010111011100100111010100000000010000000010001000101000000100010011011110001000111110110001111111111110100110111101010111111010001010100101110000011001110000101001110001000110101011001111111110010000
0100011000000111111100111101101100011100001101001110101000001011011011101010110101011100001000110000101100100001001011011101011000100111011001011010001110010110001011011110100100101001101011101110001010110110110001111101000011100111001000011011010011111100
1111010111111101101001001111111000111111001010110001000101111010100110011010001110011101101111000001100011011111111110100010100101111100101111001110110000100111110110000100001000110011110000010000010100000011001110010010011110011000110000100001011100101111
0001101101100010000001101100000001100101100111011110110000111011111110100100010101110110110001010010010110110000010101000011010011010011000011110111001110111000100000001001010110100001100110110110001001011100111101100111100101001011010111110101000111100011
1110010110001000000111010101010110101111001011100001000111001100100101000010000110011101101111101111010010010100100010101010001100111100111011001001000001101111001000000110101010110100110100110101100100011000001101001101100110110111110100110100101101101111
