1121221222112122121212222122112112211212122212212111212211211121221222122221211121221112122121222122122121111221222221222212112222211121122121112121112222112212221222122222121211121222212122121121212221211211212121212222112111111121111112112122212122122222
2222112212122212211222121112112221121221212111121222222221121121211211211122221212221112121221111122121112222122121111111111111211222112111221222221212112211111211111211112221112222221211221222112121121122212111112122221211112222212222122211111111112211112
1221122221111221121222121111111221211112111112121211211121211111121122212111212211112222221111222212222212212212211111211111212111122121212212212222212222111222222121111222112121112221122211122121212121112111112211112221112112211111111111121121121122121222
2221121211221111211221212121221221222221112111121112111112111221211222112221112222111121211221212212122221122121212222211112212111111212121212221212211221211221112111221211222112212221121211211121211121111122112111211111121121211212112121121112211112112122
2122222121221122122121112222222212212212221121111122121211221212121121121212122121122222112212111111212212211222111121112122222212222111212222111212121111222121122222222111111122212112211222212212121212211122221122122112121222122212121112211221221211221121
1121211211122212212121212212221112121111122122122112222121222122121212122221122121212121222221111121211222121111121111122222122212112121112112121121122211111222222211221121212111212222211211222111112221211112122221222212212221211121222111212112212121122212
1111112111212111122212121121111111111212211222221221122221211122122121111111221111122211222212122112221122111212111222121121121122112111212221111221111212111111212122221222222211221111222222122111112211111221121222122221212212212221211212222211121222211211
2112221112221212112212112222212222111121121222212222122111112212212111112212111222121111121122222211111111112212222122212211211121221211222111211211212222221212211122212111222222111111211112111222221112222212221221211112121112122212121222111122222211122111
1121222121111221111112112111121111222111212111122111211122212221111222222211211221212122212211212121121211111111121111211111212211112212212112121112111112122212222111121221111212222211122121212211111221212212122122122222212211221122122221212122121122111111
1212222112121222221211111221211222111111221211212121111212112221122121121222212111121221111221221211112122212222212112212222112222211111221122211111222221222111121222112211121122111111111111111212221211222212221112121112121222122212221222111212122211212111
